100010000000100
110000100000000
100001111111111
100001111111111
100001111111101
100001111111101
100010011111100
110001000000000
100001100000010
100001100000010
100001100000000
100001100000000
100001111111110
100001111111110
100010000000011
100010000000001
100000100000101
100000100000101
100000100000101
100000100000101
100000100000101
100000100000101
100000100000101
100000100000101
100000111111011
100000111111011
100000111111011
100000111111011
100000111111011
100000111111011
100000111111011
100000111111011
100001111111001
100001111111001
100010011111000
110001100000000
100001011111010
100001011111010
100001011111010
100001011111010
100001000000110
100001000000110
100001000000110
100001000000110
100001100000111
100001100000111
100010000001000
110010100000000
100001000001100
100001000001100
100001000001100
100001000001100
100001111110101
100001111110101
100010000001111
100010011110100
100001111110110
100001111110110
110010000000000
100010000001101
100001000001011
100001000001011
100001000001011
100001000001011
100001000001110
100001000001110
100001000001110
100001000001110
100001000010010
100001000010010
100001000010010
100001000010010
100001000010100
100001000010100
100001000010100
100001000010100
100001011110010
100001011110010
100001011110010
100001011110010
100000100001001
100000100001001
100000100001001
100000100001001
100000100001001
100000100001001
100000100001001
100000100001001
100001011110111
100001011110111
100001011110111
100001011110111
100001000001010
100001000001010
100001000001010
100001000001010
