100010000001111
100010011111111
100010000001101
100010011111001
100010000001100
100010000000110
100010000000011
100010011111110
100010000000010
110000100000000
110001000000000
110001100000000
110010000000000
110010100000000
110011000000000
110011100000000
100000100000001
100000100000001
100000100000001
100000100000001
100000100000001
100000100000001
100000100000001
100000100000001
100000100000100
100000100000100
100000100000100
100000100000100
100000100000100
100000100000100
100000100000100
100000100000100
100000100001001
100000100001001
100000100001001
100000100001001
100000100001001
100000100001001
100000100001001
100000100001001
100000111111101
100000111111101
100000111111101
100000111111101
100000111111101
100000111111101
100000111111101
100000111111101
100000100001010
100000100001010
100000100001010
100000100001010
100000100001010
100000100001010
100000100001010
100000100001010
100000111111000
100000111111000
100000111111000
100000111111000
100000111111000
100000111111000
100000111111000
100000111111000
100000100000101
100000100000101
100000100000101
100000100000101
100000100000101
100000100000101
100000100000101
100000100000101
100000111111010
100000111111010
100000111111010
100000111111010
100000111111010
100000111111010
100000111111010
100000111111010
100000100001000
100000100001000
100000100001000
100000100001000
100000100001000
100000100001000
100000100001000
100000100001000
100000100001011
100000100001011
100000100001011
100000100001011
100000100001011
100000100001011
100000100001011
100000100001011
100000111111100
100000111111100
100000111111100
100000111111100
100000111111100
100000111111100
100000111111100
100000111111100
100001000000000
100001000000000
100001000000000
100001000000000
100001000000111
100001000000111
100001000000111
100001000000111
100000111111011
100000111111011
100000111111011
100000111111011
100000111111011
100000111111011
100000111111011
100000111111011
100000100001110
100000100001110
100000100001110
100000100001110
100000100001110
100000100001110
100000100001110
100000100001110
