110000100000000
110001000000000
110001100000000
110010000000000
110010100000000
110011000000000
110011100000000
110100000000000
100001000000000
100001000000000
100001000000000
100001000000000
110100100000000
110101000000000
110101100000000
110110000000000
100001011000101
100001011000101
100001011000101
100001011000101
100001000010101
100001000010101
100001000010101
100001000010101
100001011111111
100001011111111
100001011111111
100001011111111
100001001000100
100001001000100
100001001000100
100001001000100
100001011100110
100001011100110
100001011100110
100001011100110
100001010111110
100001010111110
100001010111110
100001010111110
100001000110100
100001000110100
100001000110100
100001000110100
100001001000111
100001001000111
100001001000111
100001001000111
100000100110010
100000100110010
100000100110010
100000100110010
100000100110010
100000100110010
100000100110010
100000100110010
100001010110101
100001010110101
100001010110101
100001010110101
100001010010111
100001010010111
100001010010111
100001010010111
100001011010110
100001011010110
100001011010110
100001011010110
100001000101110
100001000101110
100001000101110
100001000101110
100000101001111
100000101001111
100000101001111
100000101001111
100000101001111
100000101001111
100000101001111
100000101001111
100000100111101
100000100111101
100000100111101
100000100111101
100000100111101
100000100111101
100000100111101
100000100111101
100001011000001
100001011000001
100001011000001
100001011000001
100001001010011
100001001010011
100001001010011
100001001010011
100001010110001
100001010110001
100001010110001
100001010110001
100001000101011
100001000101011
100001000101011
100001000101011
100001011111001
100001011111001
100001011111001
100001011111001
100001001000000
100001001000000
100001001000000
100001001000000
100001000100010
100001000100010
100001000100010
100001000100010
100001000111011
100001000111011
100001000111011
100001000111011
100000100111001
100000100111001
100000100111001
100000100111001
100000100111001
100000100111001
100000100111001
100000100111001
100000100111010
100000100111010
100000100111010
100000100111010
100000100111010
100000100111010
100000100111010
100000100111010
100001001001101
100001001001101
100001001001101
100001001001101
100001000110111
100001000110111
100001000110111
100001000110111
100001001000011
100001001000011
100001001000011
100001001000011
100001000010000
100001000010000
100001000010000
100001000010000
100001001001110
100001001001110
100001001001110
100001001001110
100001000101100
100001000101100
100001000101100
100001000101100
100001001001000
100001001001000
100001001001000
100001001001000
100001011001110
100001011001110
100001011001110
100001011001110
100000100111100
100000100111100
100000100111100
100000100111100
100000100111100
100000100111100
100000100111100
100000100111100
100001000011100
100001000011100
100001000011100
100001000011100
100001110110111
100001110110111
100001100111110
100001100111110
100001101011100
100001101011100
100001100001010
100001100001010
100001000110001
100001000110001
100001000110001
100001000110001
100001011101111
100001011101111
100001011101111
100001011101111
100001000011111
100001000011111
100001000011111
100001000011111
100001000101010
100001000101010
100001000101010
100001000101010
100001011011000
100001011011000
100001011011000
100001011011000
