100000100000000
100000100000000
100000100000000
100000100000000
100000100000000
100000100000000
100000100000000
100000100000000
110000100000000
100010000000001
100010011111111
100010000000100
100001111111110
100001111111110
100010000000011
100010011111101
100000111111100
100000111111100
100000111111100
100000111111100
100000111111100
100000111111100
100000111111100
100000111111100
100000100000010
100000100000010
100000100000010
100000100000010
100000100000010
100000100000010
100000100000010
100000100000010
