110000100000000
110001000000000
110001100000000
110010000000000
110010100000000
110011000000000
110011100000000
110100000000000
100001000000000
100001000000000
100001000000000
100001000000000
110100100000000
110101000000000
110101100000000
110110000000000
100001011101010
100001011101010
100001011101010
100001011101010
100001100001100
100001100001100
100001100100000
100001100100000
100010000111001
100010000100100
100010011101001
100010011101011
100001100010101
100001100010101
100001111011001
100001111011001
100001111010011
100001111010011
100010000011010
100010011011100
100001100110110
100001100110110
100001111000011
100001111000011
100001111100010
100001111100010
100001111110111
100001111110111
100001000101100
100001000101100
100001000101100
100001000101100
100001011100110
100001011100110
100001011100110
100001011100110
100001000100011
100001000100011
100001000100011
100001000100011
100010001000100
100010000110111
100010010110100
100010010101001
100001111001100
100001111001100
100010010111010
100010000000011
100010000111101
100010011111000
100010011110100
100010011000010
100001011100111
100001011100111
100001011100111
100001011100111
100001011011010
100001011011010
100001011011010
100001011011010
100010000110100
100010000111011
100010000000111
100010000111010
100001000100010
100001000100010
100001000100010
100001000100010
100001100000100
100001100000100
100001111011000
100001111011000
100001111010111
100001111010111
100010000110011
100010011101100
100010000111000
100010000101111
100010011110011
100010011000001
100001111110000
100001111110000
100001100001001
100001100001001
100001100010110
100001100010110
100001111000101
100001111000101
100010011010010
100010011111010
100001111001111
100001111001111
100001100100110
100001100100110
100001100011001
100001100011001
100001011100101
100001011100101
100001011100101
100001011100101
100001100101011
100001100101011
100001100011101
100001100011101
100010000110101
100010011111111
100010011110110
100010011111110
100001111011110
100001111011110
100001100011110
100001100011110
100001111101111
100001111101111
100001100001111
100001100001111
100010000100101
100010010100001
100010011010000
100010011110001
100010010111101
100010000101110
100010000010000
100010010111011
100001111001000
100001111001000
100010000111110
100010011010100
100001000011011
100001000011011
100001000011011
100001000011011
100001011011111
100001011011111
100001011011111
100001011011111
100001011011011
100001011011011
100001011011011
100001011011011
100001111111100
100001111111100
100001100010011
100001100010011
100001100010001
100001100010001
100001111001110
100001111001110
100001111101101
100001111101101
100001100010100
100001100010100
100001111100011
100001111100011
100001111010101
100001111010101
100001111010110
100001111010110
100001100110010
100001100110010
100001011100001
100001011100001
100001011100001
100001011100001
100001111011101
100001111011101
100001111111011
100001111111011
100001100011000
100001100011000
100001100011100
100001100011100
100001000101000
100001000101000
100001000101000
100001000101000
100001111100100
100001111100100
100001100011111
100001100011111
100001111101000
100001111101000
100001111000000
100001111000000
100001100100001
100001100100001
100001111010001
100001111010001
100001100010111
100001100010111
100001100101001
100001100101001
