110000100000000
110001000000000
100001100000100
100001100000100
110010000000000
100010000000110
100001100000011
100001100000011
100001100000000
100001100000000
110010100000000
100010000000101
110011100000000
100010000000010
100010000000001
110100000000000
100000111111101
100000111111101
100000111111101
100000111111101
100000111111101
100000111111101
100000111111101
100000111111101
100000111111110
100000111111110
100000111111110
100000111111110
100000111111110
100000111111110
100000111111110
100000111111110
100001100001011
100001100001011
100001100001100
100001100001100
100001100010001
100001100010001
110001100000000
100010011110101
100000111111000
100000111111000
100000111111000
100000111111000
100000111111000
100000111111000
100000111111000
100000111111000
100000111110011
100000111110011
100000111110011
100000111110011
100000111110011
100000111110011
100000111110011
100000111110011
100000100010100
100000100010100
100000100010100
100000100010100
100000100010100
100000100010100
100000100010100
100000100010100
100000111111001
100000111111001
100000111111001
100000111111001
100000111111001
100000111111001
100000111111001
100000111111001
100000111111010
100000111111010
100000111111010
100000111111010
100000111111010
100000111111010
100000111111010
100000111111010
100010000001111
110011000000000
100010000010000
100010000010010
100001011110111
100001011110111
100001011110111
100001011110111
100000111111011
100000111111011
100000111111011
100000111111011
100000111111011
100000111111011
100000111111011
100000111111011
100001000010101
100001000010101
100001000010101
100001000010101
100001011110001
100001011110001
100001011110001
100001011110001
100001011110010
100001011110010
100001011110010
100001011110010
100001111110000
100001111110000
100010011101111
100010011101110
100001100001001
100001100001001
100010000010011
100010000001101
100001000001000
100001000001000
100001000001000
100001000001000
100000111111100
100000111111100
100000111111100
100000111111100
100000111111100
100000111111100
100000111111100
100000111111100
100000100000111
100000100000111
100000100000111
100000100000111
100000100000111
100000100000111
100000100000111
100000100000111
100001111110110
100001111110110
100010000001010
110100100000000
100001011111111
100001011111111
100001011111111
100001011111111
100000100001110
100000100001110
100000100001110
100000100001110
100000100001110
100000100001110
100000100001110
100000100001110
100000111110100
100000111110100
100000111110100
100000111110100
100000111110100
100000111110100
100000111110100
100000111110100
