100000100000000
100000100000000
100000100000000
100000100000000
100000100000000
100000100000000
100000100000000
100000100000000
100010011111111
110000100000000
100010000000001
110001000000000
110001100000000
110011000000000
110011100000000
110100000000000
100000100000101
100000100000101
100000100000101
100000100000101
100000100000101
100000100000101
100000100000101
100000100000101
100000111111100
100000111111100
100000111111100
100000111111100
100000111111100
100000111111100
100000111111100
100000111111100
100001000001001
100001000001001
100001000001001
100001000001001
100001000001000
100001000001000
100001000001000
100001000001000
100010000001110
100010000001011
100001100001010
100001100001010
100001011111010
100001011111010
100001011111010
100001011111010
100000111111101
100000111111101
100000111111101
100000111111101
100000111111101
100000111111101
100000111111101
100000111111101
100001111111001
100001111111001
100001111111000
100001111111000
100010000001100
100010000001101
110010000000000
110010100000000
100001011110000
100001011110000
100001011110000
100001011110000
100001000010011
100001000010011
100001000010011
100001000010011
100000111110100
100000111110100
100000111110100
100000111110100
100000111110100
100000111110100
100000111110100
100000111110100
100000111110011
100000111110011
100000111110011
100000111110011
100000111110011
100000111110011
100000111110011
100000111110011
100001000010010
100001000010010
100001000010010
100001000010010
100001000010001
100001000010001
100001000010001
100001000010001
100000100000100
100000100000100
100000100000100
100000100000100
100000100000100
100000100000100
100000100000100
100000100000100
100000111111110
100000111111110
100000111111110
100000111111110
100000111111110
100000111111110
100000111111110
100000111111110
100000100000011
100000100000011
100000100000011
100000100000011
100000100000011
100000100000011
100000100000011
100000100000011
100001000000111
100001000000111
100001000000111
100001000000111
100001000000110
100001000000110
100001000000110
100001000000110
100000100000010
100000100000010
100000100000010
100000100000010
100000100000010
100000100000010
100000100000010
100000100000010
100001011111011
100001011111011
100001011111011
100001011111011
100010011110110
100010011110111
110100100000000
110101000000000
100001111101111
100001111101111
100001100010100
100001100010100
100001011110001
100001011110001
100001011110001
100001011110001
100000111110101
100000111110101
100000111110101
100000111110101
100000111110101
100000111110101
100000111110101
100000111110101
100001000010000
100001000010000
100001000010000
100001000010000
100010011101101
100010000011001
110101100000000
110110000000000
100001000001111
100001000001111
100001000001111
100001000001111
100001011110010
100001011110010
100001011110010
100001011110010
100000100010110
100000100010110
100000100010110
100000100010110
100000100010110
100000100010110
100000100010110
100000100010110
100000100010111
100000100010111
100000100010111
100000100010111
100000100010111
100000100010111
100000100010111
100000100010111
100000100010101
100000100010101
100000100010101
100000100010101
100000100010101
100000100010101
100000100010101
100000100010101
100001011101110
100001011101110
100001011101110
100001011101110
100001000011000
100001000011000
100001000011000
100001000011000
